1000000110001000
0000000000011111
1000000011000111
0000001100111010
0001001111100100
1011000100110110
1010001000100101
1010001010001011
1001001100111011
1000001001111000
1010000011010110
1001000110101010
1001001111001100
1010001101100100
1011001100111101
0000001100001100
0000001111001000
0000000101010011
1000001000110010
1001001111001101
0010000111001000
0001001100100010
0001000111000101
0000001101010101
0000001110011111
0000001100011001
1010001001100111
1011000001010001
1000001001010100
0010000001101001
0000000111011111
1010001110111001
1010000000011000
1000000100000101
0000001101010110
1000000000010001
1011000100001000
1000001100100011
0000000011101110
0000000001111101
1000001111001101
1011000100001000
1000000100110111
0000000101010100
0000000100101010
1011001011010000
1011000111100110
1000001000111101
0001001110101000
0010001100100111
1000000101101101
0000000001001000
0000001010001111
0001001011001001
0010001100110101
1010000111100110
1001001110010000
1001001000101110
1000000111111000
0001000001000011
1001001001011100
1001001011100010
1011000011101110
1011000010011010
1001001011000111
0000000101000001
0000000010101101
1000001101110010
1010000000010101
1011000001111000
0001001110000011
0001000111101101
0000001110001001
0000000101111100
1000000000100011
0000001000010110
0011000100100000
0010000001011101
0000001010000100
1000001110000000
0000001010001011
0010000101000010
0011000000011100
0001001011000011
1001000010001001
1001000001110111
0001001110010110
0011000011100001
0000000101010111
1010001001000100
1001001000011010
0000001001110001
0000001110010101
1000001101010111
1001000110000110
1001001101010110
1010000001010010
1010000000001111
1000001010010000
0000000100110011
0100000001100101
0001001000011000
1000000110010110
1010000000101000
0000000010011111
0000001111100111
1000000110111011
1001001101101110
1010001010001001
1000001010001110
1001000000001100
1001001111001110
1010000101101010
1001000001101111
1000001011111111
1010000100001101
1010000111000001
1001000011100110
1000000110111010
1001000011101001
1001001010011101
1001000010101000
0000000011111111
0000000100111000
0001000011100011
1000001010100101
1001000111000001
1001000110011101
1000001100111110
1000001001100010
1010001011010001
1011000000111000
1010001100111011
1010001001110011
1010001010100001
1000001100010110
1001000101001000
1001000100001010
1001000001010000
1001000100011100
0010000011111110
0001001010111001
0001000100111010
0000001101011100
0000001001001000
0010001010101101
0010001001001111
0001000110010010
0000000110111010
0000001011011001
1001000001100010
1001000000011011
1000001101100101
1011001001000011
1000001000110000
1010001110101101
0000001000100000
0000000011100110
1001000000101000
1000001011011001
1000000100111110
0000001111100110
1001000011110100
1010000010011101
1000001010100011
1000000011100101
0000000100110100
1010000000011000
1010000001010100
0000000000000011
0000000110110010
1000001011011010
1001001101000100
1001000011010111
0000000011100101
0000000110001011
1001000110101111
1001000011011011
1000000010100001
0000000110101010
0000000010100000
0000001001101101
0000000110000100
0001000001010010
0000000010110000
1000000111110001
0000001101000000
0000001010101100
1000000001111100
1001000110101010
1000001010011111
1000000011100011
1000001100010011
1001000110100111
1001000111101011
1001000101111000
0000000111010011
0000001000110111
0000001110000001
0000000101101100
1000001101010010
0000000110000110
0000000111000000
0000000011011111
1000000110010110
1000001111100100
0000000010100100
0000000010011111
0000000101001010
0000000100100111
1000000010111011
0000001010110110
0000001101110111
0001000110110100
0001000011111111
0000001001001011
0000000111000101
0000000101010111
0000000010110011
0000000001101010
1000000010111011
1000000101100011
1000000110010110
1000001001110001
1000001101001001
1000001110100011
1000000101000001
1000000100000100
1000001001000001
1000001011000101
1000001011011000
0000000101011000
0000000011010101
0000000001011010
0000001000110000
0000000101000100
0000000110111110
1000000000010011
0000000000110100
0000001000010110
0000000111001000
1000001100100010
1000001101111010
1000000011101101
1000000110101001
1001000011101011
1001000010001010
1000000100011000
0000000101101001
1000000001000100
1001000111001100
1000000000011100
1000000110011100
1000000011110111
1000000110010100
1000001011011100
1000001000110010
1000000010111000
0000000011111110
0001000000010001
0000001100110011
1000000000001111
1000001101000110
1000000111010011
1000000001001000
0000000100101111
1000000000110110
1001000111011101
1001000100000100
1000000010011011
0000000001111110
0000000100000111
1001000100110000
1001001101100010
1000000110010111
0000001001110110
1000001001111001
1001001110011111
1001000100000001
0000000001001101
0000001101100011
1000000011010001
1000000100110001
0000000111010111
0001000010101100
0001000100101010
1000000110011010
1000000001000001
0000001100001000
0001000010110100
0001000001111011
0000000011011111
0000000001110000
1000001001001011
1000001000001001
1000001100010011
0000001110111000
0000000111110111
1000001000100010
1001000101101100
1001000001101010
0000000100010001
1000000001010000
1000000101101101
0000000001110000
1000000101001011
1001000000101011
1001000010011100
1000000100101111
1000000001000111
0000000011111001
1010000100001101
1001000011010001
0000001000111000
0000001000001100
0000000001111010
1010001011000010
1000000010100100
0001000001001110
0000001011101010
0000000010001000
1001000010001111
1000000001001001
1000000000001000
1000000010100110
1000000011101000
0000000011100000
0000000000001101
1000001000111000
1000001000001000
1000000110000110
1000000010110001
1000000100100010
1000000010110101
1000000000000011
0000000111110111
1000000011001111
1000001011100000
1000001111001010
1000000101100010
0000000010011000
1000001011100101
1001000000100010
1000000110111100
0000001000000001
0000001010011100
1000001101111111
1000000101100100
0000000100000111
0000001000000101
0000000001100110
1000000100110101
0000000001001000
0000000100100001
1000000011001011
1000000100001111
1000000110100010
1000000110011010
1000001110100100
1000001101101010
1000000110010011
0001000100110000
0001000001001000
0010000011000111
0010000001110111
0001001000001100
0001000100001011
0001001100011111
0001000111000100
0000000010110011
0000001000111101
1000001010001011
0000000100001010
1000000100000000
1000001011101000
1000000101110010
1001000100101010
1001001100011111
1001001111011011
1001001000111110
1000001010101010
1000001010111011
1000000011010110
0000000101111110
0000000100011111
1000001000101011
1000001101001010
1000000100000101
1000000001000110
1000001000001011
1001000111001001
1000001010000011
1000000110000001
1000000111000100
1001000010010010
1001000100101000
1000000100110010
1000001100001011
1000000110000010
1000001000110110
1001000001010001
1000000001000101
1000000110010110
0000000011110100
0000000011011110
1000000100110110
1000000011011000
1000000100000010
1000000011110110
0000000000110111
0000000001110001
1000000001100100
1000000011001100
1000000011011111
1000000000001111
1000000010100100
1000000010011010
1000000000001100
1000000000110010
1000000000100000
1000000001111010
1000000000010010
1000000001110110
1000000010010011
1000000011011101
1000000010011000
1000000010011100
1000000000101110
1000000001111110
1000000001111111
1000000010111110
1000001100000101
0000000001100001
1000000010010100
1000000111001011
0000000001101100
1001000101000100
1001000101100010
0000000010100000
1000000010000010
1000001011110000
0000000110000010
1000000000111110
1000001100101101
1000001111001101
1000001100100011
0001000110101100
0000001101110000
1000000111001000
1001001110101101
1000001000101001
0000000110001011
0000000100110000
1000001101100111
1000001111100010
0000000001001001
1000001100010010
1001000011000001
1000001001010000
0000001001110000
0000001110010001
0000000001011100
0000000011011000
1000000110000000
0001000000011110
0000001010011010
0000001101110000
0000001011001011
1000000011110001
0000001101001111
1000000100010001
0000000010100100
1000000111001011
0000000000011111
0000000111110101
1000000010100110
1000001101010011
1000001101001010
0000000100110101
0001000001110101
0000000101011010
1000001100001011
0000000100100100
1000000001001011
1000000100101001
0000000110001000
1000000111100101
1001000100110000
1010000001100011
1010000100111010
1001000011011101
1010000001110100
1011000010100110
1010001001010100
1000001001010001
1000000000111101
1000000001111001
1001000100011001
0000000101000000
0001000011001010
0000001101000001
0001000001010010
0000001001111111
0001000110001011
0000001101110101
0000000101101111
0000000111100111
0000000000010110
1000000010010011
1000000011100000
0000000001011111
0000000100011011
1000000100101110
1000001010111111
1000001110000010
1000001000101101
1000000001010111
1000001110000000
1001000111010100
1001000001011101
1000001010110010
1000001001101001
1000001011110011
1000001000001101
1000000111100110
1000000110011110
1000000101101010
1000000100001110
1000000001000001
1000000011011000
1000001000010001
0001000000011101
0001000001101001
1000000000100010
1001000011000110
1001001010000100
0000001010111000
0000000100101010
1001000011000000
1001001101001010
1001001001000000
1000000010000000
1001000011101000
1000001000110111
0000001001101001
0000001011001010
1000000010000001
1001000001100101
1000000101011101
0000000011101001
1000000010011001
0000000000111001
1010000001000011
1010001010100100
1001001110010000
1000001011101000
0001000011110010
1001000100101101
1000000110001111
0000000101001011
0001000001111001
1000000000100111
1010000110100000
1001000100000101
0000001111000111
0001000011101010
0000000010000101
1000000010001110
1000001101111001
0000001000111100
0000001101101100
0000000111101111
0000000110010010
1000000110000101
0000000100101000
0000001000100001
1000000110010100
1000001000110010
0000000001010001
0000000000110101
0000000001111100
0000001110111000
1001000011111110
1001000101010111
1000001000010011
0000001010000100
1000001101000111
1010001000101101
1010001001000100
1001001001010000
0000000000101100
1000001100000100
1000001110011111
1010000101011100
1010001000101100
1001000100001011
1000001011010101
1000001001010100
1000001000111010
1000000110100001
0000000101010001
1001000110101000
1000000110010110
0001000011011100
0001000110110111
0000000110101000
0001001111001001
1000001011001110
0000000100111011
0000001101110010
0000000101111000
0000000100001000
1000000011101000
0000001110100100
0000001001110111
1000000011011101
1000000100001101
1000000101111011
1000000000100101
0000000011000000
0000000000001111
0000001101100110
1000001110010100
1000001101101000
1000000011100101
1000000011001100
0000001010011010
1000001111001001
1000001001110101
1000000011001110
1000001000000110
1000001001001110
1000000011101110
1000001011010010
1000001001011101
1000000110001111
0000000001100010
1000000010010110
1000001010100110
1000001001000110
0000000000001010
1000000110011100
1000001011011101
1000001000110001
1000001010000011
1000000010100110
1000001011001110
1000001100101011
1000001101001010
1000001101110011
1000001010001010
1000000100000101
1000001000101100
1000001010000010
1000001100000011
1000000110111110
0000001100100000
0000001101111001
1000000101011010
1000000010001001
0000000111111000
0001000100101101
0000000111010110
0000000110110101
0000001010101000
0000000111011111
1000000001001101
0000001000010110
0000001000000010
1000000100111011
1001000001000010
1000001100110110
1000000000000011
1000000110001101
1000001110110110
1001001101111101
1000000101101101
0000000011011110
1000000100101100
1001000010100111
1000000111111111
1000001100010010
1000001111000001
1001000010111101
1000000111111011
0000000110111110
1000001100100100
1000000000110001
0000000010000010
0001000100001010
0000001111000101
1000000010010100
0000001011100011
0001000011100111
0001001110111000
0000000010100111
1000000000100100
0001000011010100
0001001010011100
0001000100111001
1000000111010010
1000000001100100
0001000010000110
0001001011111011
0000001011011111
1000001011010010
1000000101110001
1000000100101100
1000000110011010
1000000011001111
0000000000001111
1000000011001100
1000000100010001
1000000101010111
1000000010010010
1000000010111001
1000000001100001
1000000000010001
0000000000100100
1000000001111110
1000000010000010
0000000000000110
1000000001110101
1000000001001001
1000000000101110
1000000001000110
0000000000000011
1000000001000010
1000000000111101
1000000011000110
1000000001001010
0000001000011000
1000001010000111
1001001001001101
1001001011100010
0000000001001010
1000000101011001
1001001110000011
1011000010101011
1001001001000011
0000001011110111
0000000011001100
1000000010110101
1001001001100110
1001001001101110
1000001010010101
0001000100111111
0000001100000001
0000000000111100
1001000100110100
1001000011000110
0000000010111100
0001000000001000
0000000111010110
0000000010001111
0000000000011011
0001000000000010
0000000011110110
1000001100110011
1000000100101010
1000000010110011
0000001101010100
1001000010000100
1001000110111111
1000000111100111
1000000101111010
1000000011011001
1001001101101001
1001001100011101
0000000001011001
0000000110100001
1001000101100111
1001001101110101
1000001101100001
0000000101110010
0000001000000001
1001000111111101
1001000010100111
1000000001001101
0000001010001011
0000001010000110
0000000101111100
0000000000111000
0000000111111100
0000000001000001
1000000101111011
0000000001000111
1000000100000010
1001000001100110
1001001001011111
1000001001011001
1000000010110110
1000001111001100
1001000011111100
1001000000001101
1001000011100110
0000000001010101
0000000001111100
0000000110111101
0000000101010010
1000000100011110
0001000000010010
0000001100010011
0000000010011010
1000001000011100
1000001110100010
0000001010110101
0000001011111010
0000001101011110
0000001000011001
0000000000111010
0000001000011111
0000001001001100
0001000000010100
0000001101101100
0000000101110111
0000000000001100
1000000010001001
0000000001110000
0000000000101100
1000000100100110
1000000101111000
1000000100000010
1000000101011101
1000001000111110
1000001010000011
0000000000000000
1000000100011000
1000001100000101
1000001101110100
1000001110010001
0000000101110100
1000000000101000
1000000001110111
0000000100000101
0000001001011001
0000000000001101
1000001011101101
1000000101011101
0000000100000110
0000000101111101
1001000100111010
1001000001011101
1000000010011011
1000000101100110
1001000001001111
1000001000111111
1000000110101101
1000000001011100
1000000100111100
1001000111010100
0000001001100000
1000000101000101
1000001000110110
1001000000000111
1000001100101010
1000000101010110
1000000001111010
0000000011000101
0001000011100010
0000001011111101
0000000011001001
1000001010010110
1000000000101101
0000000101010011
0000000010001101
0000000000110100
1000001011100011
1000001101010101
0000000001110101
0000000101111100
0000000001000100
1001000001101100
1001000111111010
1000000100000011
0000001011010001
1001000001101111
1010000010010101
1001000110001001
1000000100001011
0000001011100011
1000001000111000
1000000101111000
0000000000101001
0000001101011000
0001000100000001
0000000001010011
0000000000100011
0000001011000010
0000001101000100
0000001010111010
0000000101000110
0000000110110110
1000001000111001
1000001000010000
1000001010100011
0000001010110011
0000001010111111
1000000100110011
1000001101010010
1000001100111100
1000000001101111
1000001111001101
1000001010101011
0000000010010110
1000001100001001
1001001000001000
1001000101110000
1000000101110100
1000000100110010
1000000001111011
1010000111010000
1001000001010100
0000000110010110
0000000101010111
0000000000011111
1010001000010001
1000000000010111
0000001111011011
0000001011000111
0000000010000000
1000000101110010
0000000001011011
1000000000110011
1000000010000000
1000000001110010
0000001001001010
0000000100001101
1000000111010101
1000000111001011
0000000000001001
1000000010011100
1000000010110110
1000000100000111
1000000001010010
0000000101100011
1000000111100000
1000001011101010
1000001101111101
1000001010001001
1000000000010101
1000001111100101
1000001110100110
1000001010111000
0000000000010111
0000000101010101
1000000110010100
1000000001000110
0000000100101111
0000000010011101
1000000001110010
0000000000011110
0000000011000101
0000000010111111
1000000001100100
1000000101000110
1000000000001000
1000000011101000
1000000111101100
0000000001111010
0000000111101000
0001001101000011
0001000100001001
0001001100111001
0001000000111010
0000001001001000
0000001101100000
0001000111000110
0001000011100000
0000000001000010
1000000001111010
1001000011110100
1000000100101001
1000000110101011
1000001001101001
1000001001110011
1000001101101000
1001001110111101
1010000011010101
1001000101110110
1000001010010010
1000001010010011
0000000100111010
0000001101110001
0000000100111010
1000001100110001
1000001000011000
1000000001101001
1000000001011100
1000001001001110
1001000111001111
1000000111100011
1000000010100101
1000000111111101
1000001111000101
1001000100100010
1000000011100110
1000000101100011
1000000000110011
1000000000101000
1000001110011011
1000000001010000
1000000000000001
0000000111011110
0000001011001001
1000000011101111
1000000011110001
1000000100011011
1000000010101101
1000000000000011
0000000001011000
1000000011001100
1000000001011001
1000000001100101
0000000000000011
1000000010000110
1000000010000100
0000000000111010
1000000000100001
1000000010100010
1000000010101010
1000000010010011
1000000001001111
1000000010101010
1000000010110111
1000000010100011
1000000000001011
1000000010110001
1000000100010101
1000000001001111
1000000000011100
1001000001001110
1000001000101110
1000000010110101
1000000111110100
1000000001110100
1000001011011011
1000001000010000
0000000011101110
0000000010011010
1000001011110011
0001000000110101
0000001100100110
1000001000000110
1001000000100101
1000001110110000
0001000111110011
0001000100000000
1000000101010101
1001001001111111
1000001110000010
0000000001011001
1000000000101100
1000000110100010
1000000111110101
0000000010111011
1000000001000101
0000001011100110
1000000101100010
1000000011001011
1000000010001010
1001000000111000
0000000100100000
0000001001010110
0000001011011010
1000000001101101
1010001000011110
0000000111000111
0000001110001001
1001000011101010
1000001110111110
1001000101101101
0001001000010100
0000001010100111
1000001101010000
1000000011101001
0000001100101111
0001000101001111
0000000110010000
1000000100101010
0000000101111010
1000000111100001
1001000111010110
1001000110101010
1001000110110111
1010000000001001
1000000010101111
1000000010101101
0001000011000101
0000001010100001
0000000110010111
1000001100000011
0001000101010010
0010000111001001
0001001110110001
0000000110111111
0001000110100100
0000001011100110
1000001110111011
1000001000010000
1000000001001100
1001000101111000
1001001000100111
1010000110110111
1001000010111100
0000000011111111
1000001000100010
1000000001110111
1000000001000001
0000000001101111
0000000000101000
1001000100111100
1001000010001001
1001000001101010
1001000001001001
1001000001000011
1000001010001101
1000000011110011
0000000011011101
1000000010001010
1000000101101100
1000000110110011
0000000001100011
1000000100100011
1000000100110111
0000000010010011
1000000100111010
1000000100001111
1000001011111011
1000000001101011
0000000001101001
1000000101111000
1000001100000101
1000001100001100
1000000110000011
0000000110110110
1000001111000011
1000001001011011
0000000000001111
0001000010101100
0000001100101010
0000000101101011
0000000101011101
1000000111101011
1000000000011101
1000001010111000
0000000110101110
1000000101110111
1001000110100100
1000001100100100
0000001011101011
0000000010001100
0000001011010011
0000000110001001
0000001010111011
0000001100000111
1000000110000110
1000000010010101
1000000111000010
1000001011001000
0000000000010011
1000000101000111
0000001001001010
0000000001110111
1001001101010010
1000001101111110
1000000001111110
0001001000010000
0000000010000010
1001000101110101
1000000111111001
1000001110010101
0001000000100111
0000000100111001
1000001110010100
1000001011010100
1000000101011000
0001000110000101
0000001101000000
1000000110100010
1000001000011111
1001000010110111
0000000100001111
0000001001111101
0000001001101111
0000000001111001
0000000000010010
0000001011001110
1000000101011101
1001000001110110
1001001101110001
0000000111000010
1001000010011110
1000000001000011
0000001111011110
1000000111110010
1000001011110000
1000001101010000
0001000010111000
0001000111010101
0000000100001010
1000001001001110
1001000001010000
1001000101111000
1000001110000111
0000000001000100
1001000110001100
0000000100101011
0000001010101010
1000001000111111
1000001111100110
0001000001101010
0001000111011010
1000000011010010
1001000001000011
1000001001100010
0001000010001011
1000001010111110
1010001010000100
1001000110110001
1000000111101011
0000000100100100
0000001011110101
0000000110110101
1000000010101001
1000001101101000
1000000100001100
0000001101100001
0000001010001000
1000000011100011
1000000111010100
1000000010010000
1000001001100100
1000001010110001
1000000010010001
1000000011101010
1000001100111000
1000000101101100
0000001000001001
0000001111010010
0000000000010010
0000000011001100
0001000000010000
0000000111100010
1000000100011010
1000001110110010
0000000111000110
0000000101001010
1000000111100101
1000000101111100
1000000000010110
0000000111000110
0000000101110110
0000001000001011
0000001011011010
0000000101011111
1000000000101100
0000001100011001
0001000011010101
0000001101000110
1000000010101010
1001001001010110
1000001000101011
1000000010100010
1001000100001000
1001001001100010
1011000111110000
1011000011000011
1001001110100001
1010000100010111
0000000001101100
1000000100011000
1000000111101100
1000001011100000
1000000110001101
0000001110101100
0001000001011000
0001000011001110
0000001001111000
0000000111011000
1000000010100000
0000001011000001
0000000011011111
1000000011101010
1000001101001011
1001000010010000
0001000111101001
0000000011100101
1001000011010101
1000001010001010
0000000101111010
0001000001010011
1000000111010011
1001000111001101
0000000010000001
0001000010000111
0000000100011001
1001000101000010
1001001110010101
0000000001111100
0000000101101110
1000000011111010
1001001001010110
1001001010011100
0000000000100101
0000000111010101
0000000001111010
0000000001100110
1000000000111001
1000000001011111
1000000010001110
0000000001001010
1000000000001101
1000000000011100
1000000010101101
1000000100111000
1000000010000101
1000000001100101
1000000100111101
1000000001100100
1000000001110011
1000000100111010
1000000011100100
1000000100001010
1000000001000101
1000000001101110
1000000100011100
1000000011101111
1000000100001000
1000000001110001
1000000011101110
1000000110000111
1001000010101001
1000000010111101
0000000111000110
0001000010100000
0000001101101000
0000001001100101
1000001011100101
1000001100101000
0000000001000000
0000001011111101
0000000001011110
1000000001011100
1000000111000110
1000000111111000
1000001001001011
1010000010101100
0001000010010010
0010000101000001
0000000011011011
1000001010001010
1001001001010010
0000001010111111
0001001101010010
0001000000110111
1000001011001010
1001000000100001
1001000001110011
1000000110011110
1000001001001011
0000000111111111
1000001100000111
1001000010101010
1000000101111001
0000000100010101
0000001010111101
1000001100011011
1000000010110010
0000000110001010
0000000000101000
1000001001000101
1000000100000110
0001000000110111
0000001000000111
1000000111001000
1000001001111110
0000000010011111
0000001101101100
0001000011010010
1000000000100111
0000000101001110
0000001000101011
1000000111101100
1001000011101101
1001000000101010
0000000011000001
1000000111010101
1001001101110100
1001001001000101
1001000010010110
1001000110010100
1001000101111000
0000000100110001
0001000101101000
1000000011110001
1000001000111111
1000000100101000
0001000110111001
0000001101010100
0000000010011011
0000000000011110
0000001000001001
0000000001101100
1000001011011110
1000001011101110
0000001000001011
0000000111110100
0000000110000111
0000000000100000
1000000001001111
0000000100100010
0000000001001101
1000000100010000
1000001000110100
1000000110100111
1000001001100010
1000001011010001
1000001111010000
1000001110010011
1000001100110011
1000000110001110
1000000100111111
1000000000011110
1000000111100000
1000001101001011
1000000001011100
0000000000011000
1000000000010001
1000001010001110
1000001010110111
0001000010010010
0001000010001000
0000001010000001
1000001001001111
1001000001110010
0000001001001101
0000000010101110
1000000110110101
1000001110101000
1001000011100000
1000001011010111
0000000000000011
0001000100001010
0000001000100010
1000001000011010
1000001000101110
1000001000011000
1000000100000100
1000001000100110
1000000100100001
1000000110000111
1001001100110011
1001000110001100
1000000100110100
0000001100010111
1000001101111101
1001000100001101
1000000010011011
0000001001000011
0001000101110100
1001000110011100
1010001000111000
1001001001111100
1000000000000001
0000000100010000
1000000010001110
1001000111010110
1001001011010001
1000000100100011
0000001110000000
0000000101111100
1000001011101110
1000000100100010
1000000101000101
0000001111001100
1000000110101001
1000000011101011
1000000101110010
1000001010101100
0000000010011100
0000000000101011
1000001110100001
1000001000101000
0000001011110010
0001000111011010
1000001011100100
1001000101011001
1001000100101111
1000000100101110
0000000001111100
0000000011001101
1000001011000100
1001001111000101
1010000101110110
1000001101101111
0000001110001111
0000000110111001
0000000001001111
0000000101110111
1000000011101100
1000000100010001
0001000001110000
0010000010010011
0001000000010110
1000000111111111
1000001010110101
1000001000000011
0000000100001000
0000001001100101
0000000011011010
1010000001010000
0000001110101110
0001000110011110
0001000100101101
0000000011000100
1000001111001101
0000000111010001
1000000010000000
1000000011100100
1000000011100000
1001000001011000
1001001001111000
1001001000110100
1000001100111100
1000000101101011
1000001010100100
1000001011001100
0000000001101100
0000000101110101
1000000110111001
0000000000000110
1000000100110110
1000001011010010
1000001000000111
1000000010101000
1000000001111110
1000001000100011
1000000100100111
0000000111110101
0001000010111101
1000001101101000
1000001001010111
0000000010010001
0000001101101011
0000001011001110
1000001000110011
1000001001000100
1000001000100001
1000001010110011
1000001000011101
1000001001111000
1000001110001010
1000001011010010
1000000011010011
0000000001011010
1000000000010000
1000001000100011
1000000000000101
0000001010001110
0001001100111111
0000001101001100
0001000100110011
0001001010100010
0000001011000100
0000001011111001
1000000000110110
0000001110000111
0000000001000101
0000000101011000
1000001100101011
1001000010001110
1000001001000110
1000001011101101
1001000001111100
1001000000001010
0000000110111000
1000000000100111
1001000000101011
1001001001011011
1001000010010111
1001000010011111
1000000011010011
0000000101100100
0000000101110100
1000001001010011
1000000100011011
0000000010101000
0000000110010100
0000000001111011
1000001101101010
0000000100110111
0000000110110010
0000000111011000
1000001000001000
1000001001101011
0000001010110011
0000001110100011
0000001000010001
1000000111001011
1000000100000010
0000001011100111
0001000110000010
0000000101101100
1000000011101010
1000000100001001
1000000100100011
1000000101000101
1000000100110011
1000000001100011
0000000000011010
1000000011100010
1000000010101010
1000000010111110
1000000011000110
0000000000000110
1000000000110111
0000000000101000
1000000010011000
1000000011011010
1000000001010100
0000000001001110
1000000010001101
1000000010000101
1000000000101010
1000000000111111
0000000000011011
1000000000001111
1000000001000100
1000000100000010
1000000010111110
1000000101100001
1000001010111010
1001000100011110
0000000100100010
0001000000111100
1001000000111101
1001001101111101
1010000100110110
1000001101100111
0000000110101010
0000000110100011
1000001101111001
1010000010001100
1010001000001011
1000000100010001
0000001100011111
0000001000001001
1000001110011111
1001000000110110
0000000101010001
0000001011101001
0000001100001110
0000001010001100
0000001110100110
0000001010000101
0000000100011010
0000001011001101
1000000100100001
1001000001010110
1000000100011111
0000001001101110
1000000111010000
1001001001011100
1001000100011101
1000000011000011
0000001100011111
1001000100010001
1001001010110000
0000000010110111
0000001111011010
0000000011000101
1001000100011010
1001000010001001
0000000100100000
0000001010111100
1000001001100010
1001000001000100
1000001010110100
1000000101000010
1000001000100001
0000000111001110
0000000100111010
0001000010011111
0000000110100001
1000001101000010
0000001010001100
0001000000001100
0000001110001000
0000000101110101
1000000000100111
0001001111000001
0000001101000100
1000000111111000
1001001001011010
1001000001000000
1000000110001110
0000000001001111
0000000101000011
1000000101101100
1001001010011111
1000000010001111
0000000001111000
0000000110000001
1000000100000111
1000001011011010
1000001101000011
1000001010110000
1000000111111010
1000000110011110
1000001001000110
0000001000001011
0000001010011100
0001000011100001
0001000101001101
0000001011001011
0000001001000001
0000001011101010
0000000111100100
0000000100110010
1000000000111010
0000000000100111
1000000101110111
1000000111100010
1000001010000110
1000001001010101
1000000110001011
1000000100111111
1000000100011010
1000001001011111
1000001010000010
1000001111001000
1000001001010110
1000000011110000
0000000100101101
0000000000010110
0000000011101110
0000000110110101
0000001001111011
0000001011110001
0000000000010100
0000000011011110
0000000000011101
1000001000001111
1001000001000101
1000001101101010
1000001100111010
1000000111001100
0000000011001011
0000000010000100
1000001101011101
1000000100100001
0000000100110001
0001000010000111
0000001100011100
1000000001100111
1000001001101111
0000000011100001
1000000100001110
1000000000010101
1000000001011110
1000000011101011
1000000010011011
1000001100110110
1000001011001011
1000000001100011
1000000110011000
1001001100101101
1001000011001000
1000000110110110
1000001001000111
0000000101001001
1001000010001111
1001001010100001
1000000100100001
0000000010101111
0000000110010111
1000001110010000
1001000101010111
0000000011111100
0000001011001010
1000000000001111
1000000011110101
1000000010110100
0000001001001110
0000001000001100
0000000000000010
0000000011000010
0000001100111110
0001000001000000
0001001000111010
1000000100100100
1000000100111111
1000000001011000
1000000001100000
1000000000100111
0000001110000010
1000000000011011
1001000010001110
1001001000110011
1001000000010101
0000001110011111
0000000001111011
1000001000101110
1000001001110100
1000001001100111
0000000000001000
1000000110111001
1000001010000110
1000000101101011
0000000001000011
1000001100001110
1001000010101111
1000001010101111
1000000011011011
0000000110110011
1001001101001111
0000000001110000
0001000100011111
0000001010010001
1000000001011100
1001001011010000
1000000110000101
0000000001101111
0000000010001101
0000000001110011
1000000000000100
0000000010110111
1000000010010001
1000000010111000
1000000010110101
1000000101001100
1000000001110010
0000000010000011
0000000101011001
0000000110001111
1000000100011011
1000000011000111
1000001001101011
1000000101001010
1000000001000000
1000000011010010
1000001001110101
1000000110110100
0000001010011101
0001000010010100
1000001101100100
1000001001001111
0000000100101011
0000001110111101
0000001101011011
1000000110110010
0000000000101010
0000000110000001
0000000001100110
1000000011000000
1000001000110000
1000000110001001
1000001001110101
1001000000111111
1001000100111110
1000000111111000
0000000000101000
0000001100110011
0001000011101111
0001001001001010
0001001000100011
0001000011001010
0001000101100111
0001000010011000
0001000100111110
0000000011101000
0001000001111111
0001000010100111
0000000011100110
0000000001111110
1000001100010011
1000001100011001
1000001111000100
1001000010000111
1000000100010001
0000000000110010
1000000011001000
1000000100101000
1000000110000011
1000000010000111
1000001111011111
1000001101100110
1001000001010001
1001000110100111
1001000111111010
1001000010000100
1001000000000011
1001000110111111
1001000001111111
1001000010110100
1000001100110010
1001000011000011
1001000100011010
1000001101110100
1000001100100110
1000001010100101
1001000111010110
1001000011111010
1000001010101101
1000001010111000
1000000000001101
1000000010001101
1000000000010010
0000000001011011
1000000001110001
1000000010110100
1000000010001000
1000000010111000
1000000011011011
0000000000000111
1000000010001111
1000000010100111
1000000100100110
1000000011011110
1000000000110000
1000000011010010
1000000010110000
1000000001100111
1000000000111101
1000000001101111
1000000000000011
1000000000001000
1000000011000011
1000000000110001
1000000000100001
0000000000011101
0001000101001101
0001000000100110
1000001010100001
1000000111101001
1001000010001100
1000000001010100
0000001100010101
0000000010100000
1001000011101100
1000001100101000
1001000011101011
1000001010110000
1000001000100001
1000000111011011
0000001011001101
0000000111011000
1000001110000111
1001000110101101
1000000001100011
0000001100010110
0000001000101010
1000000101001110
1001000110010000
1000001000110011
1000000111000100
1001000011000100
1001000011000001
1000000000110111
0000000101000101
1000000101101110
1001000011011010
1000001000000101
1010000010011011
1000001100101101
1000000101010010
1000000010001000
0000000001000011
1000000011111110
1000001000011010
0000000000011101
0000001010100010
0000001111010010
0000000101000001
0000000111000000
0001000111010001
1000000101000101
0000000101011011
0000000010001110
0000000011010011
1001001101110100
1000001011100100
0000001000111010
0000000001101001
0000000110010011
0000000111101010
1001000001000101
0001000011010011
1001000001100001
1011000110001100
1001000010110111
1001000000101111
1001001010011011
1001000001111001
0000001011111100
1000001000000100
0000001000000101
0001000000110110
0000000011101101
1000001000100000
1000001000100110
1000000000110001
1000000101011100
1000001010011001
1000000000101100
0000000000111110
1000000011110000
1000000101001111
1000000010010011
1000000010100001
0000000000001001
0000000000101110
0000001010101011
1000000100110011
1000000100000010
1000000000001010
0000000010000100
1000000101011001
1000001000100001
0000000000101010
0000000011000110
0000000100111101
0000000110010110
0000000001011111
0000001100110011
0001000101010111
0000000011001110
0000001110010110
1000001110001101
0000000100001000
0000000011010010
0000000010110101
1000001001000010
0000000100100110
0000001011110010
1000001101100111
1000000111010011
0000001001011110
0001000100001000
0000000011110011
1000000000101110
1000000001010001
0000001010111001
0000000010001010
1000000001100000
1001001001011001
1000000101011001
1000001001000000
1000001110110101
0000000110111000
0000001011110100
1000001010111011
1001000100010111
1000000000110111
0000000101111011
0000000100101010
1000000110011111
1001001001001011
1000001101111100
0000000101011000
0000001011110101
1000001011011000
1000001100000001
1000000100010111
1001000001001011
1000000101100111
0000001111000011
0000001110001111
1001001100101101
0001000100001111
0010000100000100
0000000111111011
1000001011001011
1000000010010111
0001000001100011
1001000001100100
1010000101011111
1000001010001101
1000000001111101
0000000000100011
1000000000110001
1000000101101010
0000000010101010
0000000010010001
1000000100111001
1001000100001001
0000000110000000
1000000110101111
1000000110011100
1000000101001101
0000000111000011
1000001001010011
1000001001001101
1000000100111001
0000000001000000
1001001001001001
1000001010111100
1000000111010110
1010001011110011
1010001100001000
0000001000111110
0000000000011110
1010000000001110
1010001101101000
0000000001010000
1001001001011000
1000000000101011
1001000010000111
1000001110011100
1000000010010111
0001000001100001
1000000000110010
1001000010100011
1001001110010101
1000000110011011
0000000001001110
1000001101000010
0000000010011001
0000001100110100
0000000100001001
0000000011000000
0000001010000001
0001000001010001
1000000011010011
0000000110001100
1000001000111001
1000000010111100
0000000001101010
1000000010001010
1000000000110011
0000000010011100
0000000001010000
1000000001001010
0000000000110011
0000000000110100
0000000000110111
1000000000010000
0000000000010111
1000000010000000
0000000011000100
0000000000111100
1000000011111101
1000000000000000
1000000111110100
1000000000101010
0001000101101101
0001000100110010
1000000001001011
1001001010001010
1000000001111001
0000000100001111
0001001110001000
0000001001101011
1010001010001100
1001001010110011
0010000011010100
0001000001001101
1010000000100100
1001001001011011
1000001011101100
0001000001000010
0001000001011010
0000001010101100
1001000011011001
1000000111000011
0000000100010000
1000000011011001
0000000000011101
0000001001001010
1000001100100001
1000000101100001
0000000011101100
1000000110000111
1000000011111010
1000000000101111
1001000010011101
1010000000000100
1001001100010111
1000001000101001
0000000100011101
1000000001000011
1001000010100101
1000001101101011
1000000010010010
1000001100101000
1001001100000100
1000000010010000
0000000111000111
1001000010111000
1001000100101100
1000001111000001
1000001101001010
1000000110000011
1000000100100100
1000001000000000
0000000010010001
1000000100101000
1000000100110010
1000000010010110
1000000110100000
1000001101010010
1000000100010110
1000000101100100
1000001000000111
1000001111001100
1000000101110110
1000000001100110
1000000010000111
1000000110011100
1000001101101000
1000000010001111
1000000101110010
1000000111000101
1010000001101100
1000000100011011
1000000100010100
0000000011000000
1000000000101011
1000000100010001
1000000000110110
1000000111110101
1001000101001000
1000000010001101
0000000100000011
0010000010110110
0000001101111011
1000000011110110
1001000001110100
1000000100001011
1000000011011100
1000000000111001
1000001000101011
1000000011110001
1000000100010101
1000000011010100
1000001000000100
0000000000101110
0000001100001000
1000000000100011
1000001110001000
1000000101010011
1011001001110001
1001000010100001
1000001000010000
1001000001101001
1000000000100110
1000000000110110
1000000110101101
1001001010001101
0000000010100111
1000001010001111
1000001010000111
1010001100001101
0001000010100001
1000000001001000
1000000000111110
0001000100000100
0000000000101010
1000000110001001
1000000100100010
0000001000000100
1000001110000011
1000000011110000
1000001011000011
0010000001010000
1000001100011100
1000000100111101
1000000011100101
1000000001010001
1000000011001101
1000000110001101
1000000001110111
0000000000001111
0000000000011000
1000000010001000
1000000100000001
0000000101001001
1000001011011111
1000000100001101
0000000011001110
1000000111100101
1000000111111011
1000000001001000
1000000001101010
0000000010101001
1000000011101001
0000000000010110
1001000011111011
1010001011111110
1001001000010101
1000000110010101
0000001011011111
1001001110110110
1000001101011011
0000000101011011
0000000111010000
1010001110010110
0000000111111011
1000000001000011
1001000000001011
1000000001110001
0001001011100110
1010000111000010
1000001100001101
0001001011101010
0001001000101110
0000000101101010
0000000001100000
0000000000101010
0001001100001001
0000000110111011
1000001000011111
1000000100101101
0001000000100100
1000000101000011
1000001001111000
0000000100001110
0000001101011010
1010000011010010
1000000011011100
0000000000010010
1000000001011100
1000000000110101
1000000001000010
1000000011011101
1000000100111110
1000000100110110
1000000001101001
1000000001001000
1000000100000100
1000000001011110
1000000100000001
1000000101111100
1000000000010101
0000000000001010
1000001001001001
0000000110101111
1001000111010110
1001001001101101
1000001010000100
1000001111010101
0001001000111110
1000001001001100
1000000101111001
1001001111011010
0000000011001001
1001000000000100
1000001110100110
1001001011111010
0001001110101110
1000000100110100
1000000111100000
1001000111101110
1001001011000110
1000000011100101
1001001101101000
1000001110011111
1001001000101000
0000000111011010
0000000111100110
0000001000100100
0000001111100110
0000000101110100
0000001110011000
1000000111100011
1000000101001111
1000001110001101
1000001110100101
1000000000001000
1010000100000010
1010000010110000
0001001111011010
0000000011010011
1001000001011110
1000000111001011
0011001101000011
0001000000100010
1000000010111001
0010000111110001
1001000010011100
0000000011000010
0000000100101101
0011000011001001
1000000101110111
1000001110001111
1000000000011100
1000000010011011
0000000001111110
1000000110111100
1000001011111101
1000000111010111
1000000001111010
0000000011001010
0000000110100111
0001000001001011
0000000000000101
0000001010110110
0000001001111000
0001001111000000
1000000010010001
0000000011001101
0000000110001011
1000000000000011
1000000001001010
0000000001101101
1000000110001011
1000000110101111
0000001010111111
0001001110010011
1000000111110100
1000001010110100
0001001100101100
0001000110111101
1000001001000000
1001000001110011
1000001000100010
1000001100011011
0001001110001010
0000001011010101
1001001000010000
1001001101111101
1000000110011001
1001000001010001
1001000000011001
1001001101110111
1000001110011110
1001000001100010
0001001101011000
0000000011011011
1000000011100000
1000000011010110
1001000001100001
1001001000101111
0000000001100010
0000000100110101
1000000100000001
1000000110001110
1001001011011110
1001000000001111
1001000010110101
1000000110010100
0000000111001100
0001000101000010
0000001010011000
0000000100111000
0000000010100000
0010001011010100
1001000000110101
1000000100000001
0001000010000110
1000000001100110
0000000101010100
1000001110001000
0000000111011001
1000000100000110
0001001111000000
0000000111011111
1001001110010010
1000001011111011
1010001011011001
1010001011110101
1001000011111000
0000000100000010
1000000100100011
1000000001101110
1000000000111110
1000000001111010
0000000010001000
1000001010111110
1000001010010111
0000000010000111
0000000001011110
0000000101100000
0000000100001110
1000001011011000
1000000101110100
1001000010111110
1001000001001001
1000001011011100
0010001010100111
0000001111010110
1000000001010111
1010000001000010
0010000100101110
0000001100000110
1001000100011001
1010000001000110
1000001100001001
1001000000110101
1000001010111100
1000000111101001
1000001001110110
0001000101110011
1000001010111011
0000000001111011
1000000011110101
1001000100100001
1001001101100111
0000000011000001
1000001011001010
1001000001101011
0000001101000111
0001000101101011
0000001001101111
1001001011001011
0001000110110100
1000000000110000
0001000000100011
1000000001110001
1000000011100111
1001000110010110
1000000011100110
0000000000110001
1000000001010001
0000000001010001
1000000000110000
1000000011010111
1000000010111010
0000000001000100
1000000011011101
1000000010001110
0000000010011000
0000000000110010
1000000001100101
1000000011010010
0000000001011001
1000000010110111
1000001101011101
0001000101110001
0000001010100010
0000000101001011
1001001100111101
1000001001101100
1000001001001111
1000000101100010
1010001000000101
0000000100100010
1000001100111110
1000001000111011
1000001011101111
0000000110100000
0011000010101001
0001000110100101
1010000011110100
1001000000010100
0001001000111111
0001001110111110
1010001000110100
1001000100111100
0000001000100000
0000000110111000
1011001010001100
1001000100010100
1000000110110110
1000001010100011
1011000010111111
1010000100001101
1001000011101010
0000000100111111
0000000101110000
0000000000010000
1001000110000000
1010001100011110
1000000111110001
0000001101101100
0001000100100010
1000000101011011
1001000101010011
1000001000010000
1000000110111001
1010000101110100
0001001000001111
0010000111100110
1000000000011011
1001000011110101
1000001110110111
1000000111110101
1000000110000101
1001001000011101
1000000110111010
0000000101110111
0000001000000001
1000001000000000
1000001101001101
0000001100001001
0000001011111010
1000001101001110
0000000001010001
1000000100001101
1000001010011100
1001000101000111
0000000001010000
0000000101110111
0000000100100111
0000001000100110
1000001010101111
1000000111100111
0001001100001011
0000001110001111
1000001000110100
1000001000111010
0000001010111110
1000000101101001
1000001000110100
1000001100011001
0001000000111101
0000001101000000
1001000010110000
1000000111000001
0000000111110111
0000000011100001
1001001101001001
1000000001111001
0000000011010000
1000001111001111
1000001101001110
0001001100110111
1000000100101010
1000000110111010
1010000011000001
1011000001110101
1010000000101001
1000001001101010
0000000011100010
0000000011110011
0000001100010100
1001000100000010
1001001001011111
1000001001100100
0010000110110011
0000001000101110
1000001011101101
0000000100101100
0010000011010001
0000000011110101
1000001101010111
1000001101010101
0000000001001101
1010000111100111
0000000110001000
0000001000111110
0000001001010010
1000000010001011
0000001101011011
1001000000100011
1001001111001000
1001000000111100
1001001010011110
1001000010111000
0001000000010010
1000000110010011
0000000100011011
0000000100111001
0000001000111111
1000000101001101
0000000010110010
0010000011101101
0000001110100100
0000000111011100
0000001110110111
0000001101110000
0000001111100111
1000000010001011
1000001111000000
1000000010101101
0000000110010110
1000000001110011
1000000011101111
1000000101101000
0000000111101110
0000000111000111
0001000111001001
0000000011010101
1001001010001011
1001001111100010
0001000000000001
1000000001010010
0000001000000101
0001001100101101
0000001101001000
0001000000011111
0000000000001001
0000000000011101
0001000010001100
0000000010001110
1001000100111010
0000000010110001
1010000101000110
1001000111110110
0001001001011011
0010000111101010
1001000011010011
1000001001100001
0001000011000000
1000001001110101
1000001011010011
1001000010001100
1001000001111101
0000000010010001
1000000011011010
1000001000100010
1000000010000011
0001000010010101
1000000011000111
1000000001100001
0000000010100010
1000000010111010
1000000011011110
0000000010000110
0000000000111100
0000000001001100
1000000010010010
1000000001001000
1000000011010011
1000000010010010
0000000010001010
1000000011010001
1000000011011010
1000000011111010
1000001110000001
1000000010010010
0000001100000111
0010001001000010
1010001000111011
1010001111100111
1000001001000100
1001000000101000
0000000100110100
1000000001001011
1000000001010011
0000000111010111
1000001011001000
1001000000101001
1001001010000010
1001000011101011
1000000111000101
0001000110111111
0010000101011110
0010000101110010
1000000100100100
1000000100010101
0010000000001011
0001001001100111
0000000000001111
1001000101010001
1000000011111100
1000000111000111
1000001011011110
0000001101010010
0000000100001000
1000000011111010
1010000101001110
1100000101000100
1011000000000010
1000000110110010
0001001001001000
0000000100110100
1000000100011111
1000001101100010
0001001000011110
1000000111111001
0001001101100101
0001000001000101
1000001000101011
1001000001001011
1001001011011111
1000000110011101
1000000110000100
1000000010010101
1000000100101010
1000000001011010
0000000000010011
0000000000001110
0000000000101010
0000000001011000
0000000110101111
0000000110111111
0000001110011010
0000000100010001
0000000000011010
1001001001100010
1001001110011111
1000000111110001
1000000000100010
1000000100001100
1000000011011001
1000000011001111
1000000010010111
1001001101001000
1001001010011111
1000001100100000
0000000110100001
1000000010011011
0001000110011101
1001000111001011
1000000100101111
1001000011011001
1001000011101110
1000001001000001
1000000111011101
0000001100100001
0000001100110000
0000000001001100
1000000100111101
0000000101000100
0000001110100101
0000000010101111
0000000010000001
0000000100101101
0000001000001111
1000000001101110
1000001011100101
1000000110011111
0001001111001000
1000000000010011
0000000100011011
1001001010001110
1011000011001010
1001001000111100
1000000110110010
0000001010010101
1001000110011011
1001000101100101
0001001100010100
0000001000101110
1000000001100000
0000000101011001
1000000001001000
1000001011110001
1000001011101101
1000000001100001
0001000101011001
1001001101101010
1000000100001001
0000000001101000
0000000000001000
1010000000110111
0000001110111000
1000000110111100
1000000110000111
0000000011010000
1010000000110000
1000000111100101
0001000101000100
0001000110110110
0000000001000110
0000000100010111
1000000010111110
1000000001100001
1000001000100111
1000000001101001
0000000000001001
1000001011110001
1000001101001111
1000000101101100
1000000100010001
0000001001001101
1000000001101101
1000000011101111
0000000100110110
0000000101111110
0000000110111110
1000000000110110
1001001001111000
1001001100001011
1100000111101001
1010000001000001
1001000100000110
0000000000000110
1001001010111000
1000001111010000
0001000000100101
0000001100001010
1000000000110100
0001000100111110
1000000000100100
0000000100010110
0000001100000111
0000000101011010
0000000100001111
0001000010000110
0001001110011001
0001001011101001
1000000101001011
0000000111101111
1001000000110010
0000000100100101
1000001100011101
0000001011010101
1001001000101011
1000001001110000
1000001000110011
1000001101111001
1001000110111110
1000001000001110
0000000010101001
1000000010001001
1000000010110101
1000000010101110
1000000001010101
0000000000001001
0000000001100110
0000000000000000
1000000001010110
1000000000111111
1000000001011000
1000000001110001
1000000000110001
1000000011001101
1000000100000101
0000000000001110
0000000101110100
1000001010011010
1010000010001100
1001001101110110
0001001000101111
0001000000010101
0000000001010011
0000000110101001
0001000010011010
0001001100101111
1001000011011101
0000000000111010
1000000110110101
1001000011100011
0000001000101101
0001000011101111
0010000001111011
0000001100010110
1001000001100101
1000001100000101
1001000001011101
0001000000001110
1001001000111111
1001001101011001
1010000011110001
1000001100101100
1001000110101000
1001001010011001
1010000100000010
1001000101110111
0000000010110011
0000000110001110
1000001010010111
0000000100101011
0010000001101110
0011001100110101
1000001101100001
0000001000000011
1000000111010000
0000000111001100
0001000101000111
1000000100110000
1000001101010110
1001000010001100
0010001000111111
0010001000001101
1001000001111101
1000000111000000
1000000001111101
0000001010011110
0000001110001000
0001000011110010
0000000100101110
0000000101100100
0000001001001110
0001001011111001
0000000110100110
1000000101010001
1000001100111111
1000000100111011
0000001001101010
0000000001010011
1001000110010001
1001000011100101
1000000001110100
1000000010010110
1000001011100010
1000000001101101
0001000001100110
0001000000000100
1001001101110000
1000001010010110
1000000000111001
0000000011101111
1000000010100010
1000000100100000
1000000010010010
0000000001100110
1000001101000111
0000000010010000
0010001010101000
0001000100110110
1000001000000000
1000001110101100
0001000100110100
0000001000000111
1001000001110011
1001001111001110
1010000001111000
1001000000001011
1000000010111010
0000000011110001
1001001110010000
1010001000111100
1010000010110110
1000000011111111
1000001010010001
0000000000111011
1000000010010101
0000001011111010
0000001000111011
0000000000110100
0000001101000101
0010000011010111
0000000000110111
0000000100011111
1001000111011110
1000001001010001
1000000010010110
0000000000011111
1000001100001010
1001001000110011
1000000111011111
1000001001101110
1001000011010101
1000001011010001
1000001000000001
1001000000101100
1001000110001000
1010000011100110
1000001110111001
1000000100010000
1000000101000010
0000001010001110
0001000001110110
0000000011001111
1000000100000111
0000000011101101
0000000000000110
1001000111000110
1000001100010101
1000000100000000
1000000101000111
1001001001100110
1001000111000101
1001000100111000
1000001101110010
1001000010000110
0000000101111100
1000000011110011
1000000000101001
0000000001101011
0000001110111010
0000000110101111
1010000100010110
0000000001010011
0001001100001101
0011000011010000
1000000010001111
0000000100101001
0000000110100101
0001000111101001
0000000000010001
1000000010111010
1000001010010101
1001001100010100
1000000000000010
0001000001001101
1000000000001000
1001001010110001
0010000000000000
0000000001000011
1001001110011001
1001001101101111
0000001101100101
1001000010111011
1001001000011110
1001001110001110
1000000010101010
1001000101101011
1000000010011011
1000000101010010
1000000010010111
0000000010001010
0000001111010001
0000000111001110
1000000000110111
0000000001100111
1000000000111011
1000000010110100
1000000000000100
1000000011111010
1000000011101011
1000000001110000
1000000011010101
1000000011110100
1000000100100011
0000000000100111
1000000010000000
0000000010001110
1000000011111010
1000000000010101
1000000001110001
0000000011001110
1001001110001001
1100000101001011
0001000011000100
0000000001101010
0000000010101100
0000000000111010
1001000101110111
0000000101111111
0000000110111001
0000001001000110
1000000011101110
1000001110011011
1000000001000100
1000000101100010
0000001100111001
0000001010010000
0000001011101000
1001000011111011
0000001101110100
0000001100101011
1001000111101001
1001001011100001
0001000000010111
0000000101001001
1000001110000010
1000000101010101
0000000001101110
1001000000010111
1000001110111100
1000000011010110
1000001011100111
1001000110010000
1000000101011000
1000000001001101
1000001100001101
0000000101101010
0001000111010011
0001001111001001
1010000000110101
0000000100100100
0000001101101100
1000001100010000
1001001010001110
0000000011000100
0000000011111011
1000000100010111
1000000011010011
1000000111000100
1000000100110001
1000000001011010
1000000110000111
1000000100100111
1000000010000110
1000001001010111
1000001011001101
1000000101001110
1000000000000101
1000000111111101
1000000011010100
0000001010101100
0000000110100100
1000000001001000
1000000000111111
1000000001101100
1000001000010010
1000000000001001
1000000011110111
1000000101011111
1001000011001010
1000000111101111
1000000110011111
1000000100110010
0000000001110100
0001000110001010
1000000001100111
0000000111110010
0001000111010000
0000001101111111
1000000111000110
1001001000111111
1010000001110111
1001000100100011
1000000011011000
1001000111000000
1001001001111111
1001000010111000
0001000000110111
0000001000101110
1000000111100101
1000000111111000
0000001011011001
0000001100110100
1000000101010101
1000000101000011
1000001110001001
1010000100010100
1010000011001101
1001001011101110
1000001100001000
1010001010100000
1000000001111011
0000001110001000
0000001100101110
0000000010010101
0000000101110101
1000000110001100
1000000011110011
0001001000100110
0001001001000010
0000000010111000
0000000011010111
0000000100011110
1000001110110010
1000000100111010
0000000011100111
1000001100010000
1001001111000101
1000000101110010
0000000100100111
1001000011100010
1000000100110101
0000000010000100
1001000111011000
1010000110101110
1000001111011011
1000000110010001
1000000000110010
1000000111001010
1000000101111100
1000000100001000
0000000001111010
1000001010000100
1000001001011001
1000000111100010
0000000010100010
1000001010101010
1000000001111101
0000000100110001
1000000011110000
1000000111011111
1000000010111000
1000000001001010
1001001011101010
1001001111100001
0001000001000100
0010001011010011
1010000011000011
1000001010011110
0000000100100010
1000001110001000
1010001011110111
1001000110011000
1001000011100111
1010001000101011
0000000010011000
1000000000010000
1000000011010001
0001000100010010
0000000111011100
0001001000111101
0000001110001011
1000001011001000
0000001100110111
0001000101010100
1000000111011010
1010000000110100
0000001011011111
1000000000000100
1001000011000100
1000001010110101
1000000000110110
1000001010101011
1000000111100000
0000000000101110
1000000001111101
1000000001100011
0000000000101111
1000000001111100
0000000010001101
1000000001100010
1000000000001010
0000000000000100
0000000011010101
1000000000000001
1000000010010101
1000000100000110
0000000000101001
1000000001001100
1000000011001101
1000000010011010
1000000111100000
1000001110010100
1001001100100000
1001001110000001
0000000101000100
0000000000000011
0001000101110000
0000001111100011
0001001000101101
0000001001011001
0000001001100001
1000001100100110
0000000000001000
0000001001101111
1000000001000011
1000001011010100
1001000101100101
1001000111001111
1001000100110110
1000001111000101
1001000000000001
1000001100001011
0001001001100110
0000001101111100
1000000001011000
0000001010000101
0000000110010110
0000001000111010
0000000111010110
0001001001110011
0001000001100000
0000000011001010
0000000000010111
0000001011001111
0010000011011100
0001000111101101
0000001011110000
0001000010110010
0000001010111011
0001000000011000
0000000111110110
1000001001100000
0000000100011001
0000000101010111
1001001011111010
1011000111111001
1010001110100101
1001001000100001
0000000010010111
0000001000000010
1000000000101011
1000001000000000
0000000110010000
1000001100110110
1000000011111111
1000000001100000
1000000110101001
1001001101101111
0000000100001111
0000001001101010
1001000000010100
1001001010010110
1000001010110101
1000001100100011
1000000001010001
1000000101101111
1000001000010100
1000000011111110
0000000010100001
1001001111011111
1001001100010100
0000000101110101
1000000000110011
1000001011110100
0000001010110100
0000000100010011
1000000110010001
1001000111011010
1001000110010111
1000000011011011
1000000010100011
1001000101001111
1000001001110011
1000000000110100
1000001101001011
1010001011111010
0000001011111001
0000000100001001
1000001111011010
1000000111001011
1000000010111011
0000000010001111
1000001001100010
0001001001101001
0010000010011010
1000000100000101
0000001010101101
0000000111100111
0000001001011101
1000001010101110
1000000101001001
1001000100010001
0000001110100000
0001000111100100
1001001000011101
1001000011001110
1010000110001110
1000000100000011
1010000000101000
1010000100011100
1001000010010111
1001000011110101
1001000001110110
1001001000100101
1000001110111000
1000000110010000
0000001001111111
0001000101101010
0000001001001000
1000000011111011
0000000101111101
1000001000111111
0000000111010001
1000000000011101
0001001000010011
0001001010101001
1000001001001101
1000000111010010
1000000110100011
1000000100111111
1000000111000000
0000000001001101
1000000000011100
0000001100111110
1000000001111100
1000000011001110
1000000011010011
0000000101101111
0000000101110010
0000000100000101
0000000111101001
1000000001010100
1000001101110100
1000000101010001
0000001101011000
0001000010001010
1000000010000110
1001001100101111
0000000010110010
0001000111001110
0001000010100110
1001000001100000
0001000111111000
1000000010000000
1010000101011111
1000000110001110
0001000100000010
1000001101100001
0010000100111001
0001000001101001
0000000110000000
1001000010000101
1000001001100111
0000000011101010
1000000111011111
1000001110101110
0000000011111111
1000000011001111
1000001011000100
0001001101100100
1000000101011110
1000000010100111
1000000111101000
0000001101001011
1000000001100110
1000001011011010
1000000001000001
1000000010100101
1000000000100111
1000000010110110
1000000011001100
1000000100111111
0000000000110010
1000000000000101
1000000001110101
0000000001110010
1000000011110111
1000000010110101
1000000010010010
1000000010001101
1000000001011001
0000000001000111
0010001011100010
0000000010100110
1000001001101010
1000000000111011
1001000100010010
1011001011101000
0000001000110001
0000001110100111
1010000110000000
1010001000000110
1000001011110001
1001000011111011
1001001101110010
1001001010110100
1000001110010111
1000001001101111
0001000011000000
0000000100010101
1000001100111000
1000000000010110
1000001010111110
0000000001110010
1001000010011110
0000001110110110
0001000000111011
1000000010001111
1000000111011010
1000001011011111
0010000101100001
0000001100000101
1010000000001001
1000000010101111
1000001001111000
0000000111010101
0000000100010000
0000001000011110
1010000010110011
1000000100111010
0001001001011111
0010000001011011
0001000010110100
0000000100111010
0000000011111101
1000001101110010
1001000101101000
1001001000001010
1000000100111011
1010000000010010
1001001000001010
1000001101111001
1001001000010110
1001001100110100
1001000001100001
1000001010110101
0000000001001110
0000000000110100
1001000001000001
1001000001010000
0000001111100101
1000000001111111
1000000100001000
1000001011001000
1001000011000000
1000001010111110
1000000011101111
0000000111000010
0001001000100100
0000000110011011
1000001001100101
0000000011110101
0001000100110110
0001000111010001
1000000011011011
1000000011101010
1001000110010010
1000000111100111
0000001010010001
0001000011111101
0001000100100111
0000000011110010
0000000011100011
0000001100001111
1001001011110100
0000000010100110
0000001010110000
0001000111111011
1001000100011110
1000000011000101
1001000001010000
0000000111101110
1000000001110001
0000000010101011
0001000100110010
0010001110110111
1000001001000000
1000000011001011
0000000100010111
0000001101010110
0000001001111010
1000000101111100
0010000010100001
0001000011100110
0000001010100111
1000000000100100
0000000111001011
1000001000111001
1000000110001101
0001001001011000
0001000010001010
1000000011000100
1000001111010111
1010001101100110
1001001010001001
1010000111110110
0000000110100010
0001000000111111
0000001011011111
1000001011001101
0000000011101101
1000000111111101
0011001110101010
1010000100000101
1000000001101000
0000001100111011
1001000111010101
1001001111011111
0000001110110001
1000000101011110
1000001000110010
1000000100110110
1000000000111011
1000000000110101
1000000100101101
0000000011110110
1001001000000011
0001001000010111
0001000011110111
0001001110100111
1000001011100011
0000000011011110
0000000011100100
0000000100000010
1000000011110010
0000000101111101
1001001100001010
1001001100010000
1001000010110110
1001001110000001
1000000001000100
1010001100101110
1001001010110000
0001001100111001
1001000111010001
1010001011001111
0000000111110111
0010000001111011
1010000001000110
1000001001010010
1010001000000111
1000001110011011
0000000100011000
1001000100010111
1001001010000000
0001000010000101
1000001100111001
1000001001110111
1010001001110011
0000000100110111
1001000110101111
1001000101110110
1010000101011010
1000000111101000
1000000100111010
1000000000100111
1001001100000011
0010000000011110
0000000000000111
0000000001001101
0000000001100010
0000000001111101
0000000011100001
0000000010111010
1000000000100000
0000000001110110
1000000011000000
0000000001010000
0000000011100101
0000000001111111
1000000000100111
0000000100111101
0000000100110000
1000000001111101
1000000010111100
0000000111101000
0000000011010101
0000001100100000
0011000110000101
0000001001010101
1001001010111011
1010000001100011
0000000011110010
1000000001110100
0001000100110110
0000001111000111
0000000111011001
0000000000000001
0000001001010011
0000000111110111
0001001110001110
1000001111001110
1010001010111110
1001001110101100
0000001010100101
0001000100000100
1010000011011100
1001001000001100
1000000101101011
1000000010101100
0001000010100010
0001000000110100
1001001000101000
0000000011011011
0000001011000110
0000000101010010
0001000110100111
0010001101011111
1000000010001001
1001001111000011
1010001011110010
0000000000110000
1000000010111110
1001001011011101
1010001001101101
0001000110000110
1000000000101000
1010000110010110
1000000010110010
1000000110011101
1010000011010111
1001000001000011
1000001011110000
1000000111000100
1001000010011010
1000001110011000
0000000000110011
0001000110011110
1000000101001111
1000001100000000
1000000101100110
0000000101110111
1001000101001011
1001000000011100
0000000111001100
0000000100110110
1000001111011011
1000001100101101
1000000011000100
0000000001011101
1000001010011111
1000000111110000
1000000100110110
0011000000111000
0010000001010001
0000001011101100
1000000100010001
1000000110111100
1000001110010011
0000000100010111
1000001001010101
1001000110000100
1001000001100100
1000001000101100
1001000010010010
1001001000110100
1001000101011000
1000000001100111
0000000110011101
0010001000110010
1000001001010111
1000000001000110
0000001101011010
0000001011111010
1000000010100101
0000000101110101
1001001111010110
1010000000101010
0000000001110111
0010000000100111
1010000001001110
1000001001101111
0000001100110001
0000000010011111
0001000001011001
0001001111010110
0000001110001111
1001000110001101
0000001010110111
0000001010110010
1001001101110010
1001000110111111
1001000001100100
0000001000000010
1001000011000010
1000001011110001
0000001100101101
0000001100000100
1000000111010010
1000001000101111
1100000001011010
1000001111010111
1000001101011101
1000001001100110
1010001111100110
0000000100010110
1000001101100111
1000001010010110
0001000100101001
0001000110110100
0001000110101101
0000001100001100
1000000001100101
1000000000100100
0000000010110111
1000000011010110
1001000000001111
0000000011111111
0000000100100111
0000000100011001
1000001010001101
1000000100001001
0000001001010011
1000000111000101
1000000101101010
0000000110111001
1000000100001111
0000000001000000
1001001100100001
1000000101110101
0000001111001110
1001000000010000
1010000011110110
1001000010001101
1001001001100110
1001001010011001
1000000100111100
0001000101010011
0001001101011101
1000001010010100
0000001011010000
0001000001111110
0001001000000111
1000001011111011
0000001000100011
1001001100011001
1010001101001110
1001001000110010
0000000001011111
1000001110010010
1001001000101100
0000001010010111
0000000011111000
1000001000100011
0000000001111110
0010000010010100
1000000101110110
1001001110111101
0000001111001001
0000000011101010
1000000011011100
0000000001110010
1000000000100001
1000000000000100
1000000010011010
1000000000111110
1000000000101111
1000000011101110
1000000000101001
1000000000100001
1000000010100100
1000000010111100
1000000101010010
1000000100011110
0000000010001010
0000000011110010
1010000110101011
1000001101001001
0010000010000011
0010000100100111
0001000111001111
0000000011101000
1000000000100100
1000001011110001
0011001010001000
1000001100110001
1001001111000100
1000001100110110
1001000110110011
1010001000100110
1010001111100000
0000001101110110
1001001000110100
1000001000100111
1001000011011000
1001000010111010
1001001100010110
1000001101001011
1010000001101101
1001000000110110
1001000010100100
1011000001110110
